1D
00
1E
00
01
1C
1E
05
1F
1F
02
18
06
1D
00
00
04
03
03
1E
1A
1E
03
05
03
1F
07
1F
03
1D
1C
1D
00
03
02
1F
02
03
03
01
01
03
08
1F
01
02
1F
18
1F
1E
03
01
02
08
03
02
1F
04
1F
03
18
1C
1A
1F
1B
03
1D
1F
04
00
03
1A
04
1E
1F
01
1E
1E
00
1D
06
1E
00
1F
1C
00
1E
00
01
00
1B
1D
01
1B
04
02
1E
02
1E
03
04
1F
01
1D
1C
03
03
03
00
00
1D
07
04
1D
00
00
1F
1F
02
06
01
02
03
1F
19
1D
05
07
1E
1E
04
00
01
03
1D
05
05
00
1C
1C
1F
02
1F
05
03
02
1F
04
1C
01
02
04
08
01
07
1C
1D
01
00
1F
1D
02
03
1F
1B
1D
19
03
1D
1F
02
1E
18
04
19
02
00
05
1D
1F
05
07
06
1F
01
05
04
06
1F
1C
06
04
05
1C
04
03
03
19
06
1D
01
1E
04
03
1D
02
1F
1F
1E
1F
19
01
01
1B
1D
00
1F
02
02
1E
1E
03
1B
1E
04
02
1E
18
02
1E
1F
02
1F
1F
01
1C
1F
1C
1D
03
1A
05
1E
00
18
04
1E
01
1D
02
18
01
06
1E
1E
05
01
01
1D
00
1C
1F
1C
1E
1E
03
18
1E
1B
03
00
1A
03
00
03
1E
1F
04
1F
1F
08
01
03
02
00
08
19
02
07
03
00
00
1C
1D
1A
1D
19
1F
1D
08
1A
01
04
1B
04
1D
02
00
18
1D
1E
01
03
00
1B
03
00
18
02
03
06
01
04
05
1F
01
18
1F
02
01
1F
01
1F
00
01
01
1F
1B
02
02
1F
1F
1F
01
05
1F
02
02
1D
1C
1D
00
05
1F
03
1D
01
01
01
05
1D
00
05
01
1F
02
1E
1E
01
03
1E
00
02
03
03
1E
01
1F
1E
03
1E
03
1E
01
1D
00
01
1C
06
1C
03
19
00
1F
01
01
1E
1C
1F
05
1A
1D
19
1F
1E
1C
04
1E
1F
04
1A
1D
1C
04
1B
1E
04
04
04
1F
00
01
1B
03
05
05
04
01
1B
1B
01
05
1F
02
1F
00
1C
05
05
02
01
1F
00
1F
1E
1C
1D
1C
1D
00
1D
01
01
1A
03
1C
1B
1F
1E
1D
1F
00
1F
00
06
01
01
1C
1E
03
01
1E
1C
01
1D
07
1F
01
1E
1D
01
18
00
1D
02
07
1E
02
06
03
1F
06
08
03
05
00
04
1F
07
01
01
1B
00
06
02
00
03
00
02
01
19
1A
06
1B
1D
01
04
00
03
00
06
02
01
1E
07
1C
00
1F
01
1F
1A
1C
01
01
07
1F
03
04
03
1E
06
06
03
1B
02
00
1E
1C
1D
1D
01
00
1E
02
1E
1B
1D
1F
1E
00
1B
03
1C
1F
1D
06
1C
1E
01
00
1F
01
1D
04
1F
01
1C
03
00
1E
01
02
1D
04
08
02
01
05
00
1E
00
04
1C
02
02
19
1C
1F
1C
1C
08
1C
06
1D
00
1F
18
07
1B
1D
1E
1B
02
1E
1F
00
1B
00
1E
01
03
1F
1C
02
00
01
02
00
01
01
1D
02
1E
01
07
1F
1F
1C
1F
1B
03
03
1E
00
05
03
03
00
08
1F
1E
06
1F
1D
01
00
1E
02
00
1F
1C
1A
18
1C
07
1F
06
07
02
1A
07
18
01
1A
05
18
1F
1C
02
03
00
03
03
00
00
1C
1C
05
1A
08
00
00
1E
1E
1A
04
05
1C
18
08
1A
1E
1D
04
00
1E
1A
06
1D
1C
03
1D
18
01
1D
18
03
1E
1F
1E
07
18
04
1F
00
1C
1E
00
04
03
1D
18
02
03
1D
04
03
00
00
02
04
01
03
00
1F
00
00
00
1F
02
06
1D
03
1E
1F
00
1E
1F
1F
01
1D
1B
01
00
01
03
1D
1C
01
1F
06
02
1D
1C
1A
08
08
00
04
1D
1E
02
00
1F
1F
04
00
1B
08
01
1C
1A
08
01
1F
01
1F
02
01
1F
1D
00
1D
1E
1D
1D
1F
02
02
1E
1F
00
18
02
1C
1E
02
01
18
00
02
02
1F
03
01
1E
00
01
00
04
02
03
06
02
1E
1D
1E
1F
02
01
06
02
1F
1C
00
03
01
00
1F
01
03
1C
02
1F
1E
1E
05
01
08
1F
00
01
1F
02
1D
1F
02
1C
00
1E
1E
01
00
1B
07
04
1F
1F
1F
1E
00
1E
1B
1F
01
08
01
04
1F
1E
05
04
1A
00
01
1C
05
02
02
1A
1D
02
1D
1B
02
01
01
1D
1F
1F
00
1F
1A
02
1C
01
1B
00
1F
03
1F
02
02
1B
1F
1D
1D
00
02
1D
1C
18
03
1C
1D
02
1C
01
00
19
1C
1A
1F
1C
1F
04
19
1F
1F
1F
01
04
1F
04
1E
02
1C
04
1C
06
19
08
1A
01
1F
01
01
18
00
1D
1D
1F
1F
02
00
06
02
1F
04
1C
1D
1C
02
1F
08
00
01
02
1E
03
03
00
1D
01
00
1B
1F
01
00
1D
1E
1F
1F
04
03
03
01
08
02
01
03
1F
04
03
08
1D
1B
03
01
07
1F
02
1E
1F
1D
1D
1E
1E
02
03
02
02
1E
00
06
1E
1E
1E
00
08
01
02
1F
1C
1D
1F
1E
1D
03
02
04
02
1E
1E
02
00
1C
01
1A
1F
05
01
04
1C
00
1E
00
1C
1D
02
1E
08
1E
05
1D
01
05
1E
02
1C
02
01
1B
07
04
1B
1F
1F
01
1C
1F
1F
02
1F
00
1D
08
1F
1E
01
01
02
00
1B
1C
1E
03
00
1A
1D
1E
1F
06
1E
19
1D
1A
04
1D
1E
00
00
04
1E
1F
1E
02
1D
1E
05
01
1F
1D
1E
1B
02
06
1A
00
00
1B
1F
01
03
1D
02
1D
06
00
00
03
03
1F
00
03
1C
1C
03
1D
1A
08
1F
1E
1F
03
02
00
1E
00
1C
1A
1E
1F
1C
1B
1A
02
1F
01
18
18
1A
1F
1F
1D
01
1E
02
01
01
1D
02
00
1E
1E
1C
00
1F
1E
04
1C
01
05
01
1D
1D
1E
03
05
01
18
1F
00
02
1E
1E
1C
1D
00
01
04
00
19
02
1B
1F
1E
01
01
01
00
1D
06
05
07
1F
18
1B
06
00
03
05
1F
1E
1C
04
1B
00
08
02
18
1F
1B
1B
1E
1D
00
1B
1F
06
06
1E
02
04
1F
1F
1E
01
03
03
19
00
1F
1E
1F
1B
03
1F
1E
1F
01
02
19
1A
02
1D
02
1C
19
00
1E
04
1D
00
00
1C
1D
02
1E
1F
1E
02
1D
1D
1B
04
1D
06
1E
1E
08
00
1E
04
1B
1E
04
1B
1F
1D
1B
00
1B
00
00
1E
1F
03
1D
1D
1C
00
18
00
00
02
1D
1F
1D
1C
00
1B
05
04
00
1E
01
03
1C
06
1E
1D
1E
05
05
1F
06
02
00
07
03
05
08
1D
1A
1D
01
08
08
19
07
1E
02
01
02
00
03
1B
02
1A
05
18
08
01
1D
01
02
00
04
1E
18
08
1A
06
1E
00
08
1C
18
1A
05
01
02
08
18
1F
1C
03
00
1B
02
02
05
05
1C
02
18
01
1D
1D
02
1E
00
1E
1C
03
03
1F
1D
1E
1F
00
18
06
02
1C
1A
1D
00
03
1F
1A
1F
01
1A
1D
06
1E
04
04
1D
1D
1C
06
1D
03
04
1C
04
00
18
1E
1D
06
06
1D
18
19
02
1C
01
19
03
01
1D
05
1C
03
19
1F
1F
1F
1E
01
1E
1D
00
19
1D
02
1B
19
1E
01
1E
02
08
00
01
1E
1F
04
1D
1A
03
1A
04
03
1C
00
01
1D
02
04
03
02
1F
03
1F
02
1E
02
1C
00
19
02
19
04
02
03
00
02
1C
1B
1A
02
1B
1F
1F
03
1D
01
00
01
04
05
01
04
00
1D
1F
03
00
1A
1D
01
00
1D
01
1B
08
1D
01
01
1D
03
01
1B
1B
01
02
1C
06
18
00
04
1C
1D
02
04
00
1E
1B
1E
1C
07
1A
01
1F
1E
01
00
03
00
02
08
03
00
1D
00
03
1B
1C
1A
04
1A
04
07
07
1D
01
1E
07
00
00
1D
18
1F
1C
02
01
1E
03
01
1E
03
1F
1C
08
04
08
1A
1C
06
19
1A
1B
02
1C
04
1F
1A
03
18
1D
03
01
01
00
1C
03
00
06
08
02
1D
1C
19
1D
01
00
1D
1C
1E
04
00
00
07
07
02
08
1B
00
01
1B
04
1D
1E
1F
1C
1C
1B
01
1F
18
1B
1B
1E
1A
05
02
1F
03
01
1C
1F
1F
1E
1C
03
00
1D
1D
08
1E
07
1D
1C
01
04
1E
1D
1D
1E
1F
01
1C
05
1D
1D
01
1E
1E
1D
1B
04
1F
04
00
1E
05
1F
1D
1E
08
08
08
01
1E
00
1F
01
1F
00
04
01
1F
00
01
1F
04
01
05
1E
04
00
01
02
1D
00
1F
1D
1E
1C
01
02
1F
1F
01
19
04
00
1E
1D
1C
1D
1F
06
02
00
00
02
1D
1D
1F
1F
08
1F
1F
04
1F
1E
18
1D
1F
01
02
1B
04
1B
1C
02
00
1D
08
01
00
02
1B
04
00
1E
1C
02
02
02
01
1F
02
1F
07
1C
03
03
1A
03
18
03
04
1F
02
01
01
1B
1F
1F
05
1D
04
08
1C
1E
1D
00
05
1D
1F
04
02
1D
1D
1D
1D
03
00
1F
00
1E
00
02
19
1D
01
1C
08
00
1D
1C
1F
1B
00
02
1D
1D
05
02
01
1C
08
01
08
1E
1F
1A
01
1E
01
01
01
00
02
1A
01
19
05
01
1E
18
02
03
03
1D
1D
03
07
1D
1F
00
08
01
00
00
1F
01
02
03
1D
03
02
1C
00
1E
00
1C
03
08
1E
05
02
01
02
00
04
05
01
01
03
03
1F
1D
1F
1B
06
1F
08
1E
1E
1D
18
02
08
1E
03
1F
01
05
01
1B
18
01
03
1E
00
02
01
00
04
04
1C
1F
00
00
1B
1E
01
1C
01
04
1F
05
03
1C
01
1D
1E
1C
1E
03
05
1C
03
19
1B
1E
04
1E
1F
1B
1F
1E
1E
18
01
1F
01
1F
1D
1F
01
03
1D
1C
00
1D
03
1E
1E
05
1F
1F
1E
1D
03
18
1F
1F
04
1D
1E
1D
00
1A
06
1D
1E
00
05
00
02
1F
00
1A
1F
18
07
1F
18
1F
01
1D
08
02
1E
08
01
03
03
02
08
08
00
1F
1F
05
04
06
04
1E
07
1D
1D
01
06
01
05
05
02
00
03
1E
1B
06
1F
18
03
1B
06
02
1A
1E
1B
1E
1F
01
1F
01
00
08
1E
00
07
07
04
00
1E
08
1F
08
1C
06
06
1A
06
03
04
04
1C
1C
1A
1B
1D
01
02
1D
00
1C
1F
1C
08
1D
01
05
1F
1E
04
1C
1D
02
00
03
18
04
05
03
1E
1D
02
1C
1A
1D
1E
1F
1F
1F
03
1F
05
06
02
1F
1F
01
03
00
03
1D
1E
1F
02
1A
06
1D
1F
1C
1A
1F
05
1F
03
1E
1E
03
07
04
01
01
1F
1C
1C
00
00
06
04
03
04
01
01
1B
06
03
08
00
04
1D
1B
00
1E
01
06
1A
01
1D
1F
1D
1E
1D
19
03
1C
1A
1B
02
18
02
02
06
18
00
07
1C
02
03
1E
02
08
07
01
1C
06
1F
1F
1D
1B
01
1C
04
1D
1C
1D
04
1B
18
04
1E
01
07
08
06
03
1F
06
1D
01
03
03
1E
1D
08
00
02
02
04
04
04
04
06
05
03
04
02
1E
1C
04
02
01
1F
1D
1E
1D
1E
1E
00
19
02
1D
01
04
1B
01
1B
00
02
05
01
1F
03
01
1C
1F
03
00
1A
07
02
06
1C
1C
01
1F
08
02
03
1C
02
1A
19
05
1A
08
1B
02
1C
1C
1E
01
06
02
1F
08
18
03
19
1C
00
02
1D
1D
03
01
04
1D
04
1F
03
18
01
02
1E
1E
19
04
1D
01
05
1E
05
1F
02
1F
04
02
05
05
1C
1F
1D
04
02
1A
1E
00
1E
00
1D
04
1D
18
1E
1F
1F
1D
00
08
05
1C
1F
1E
03
18
1B
05
1B
02
02
05
1A
1F
03
1A
01
1B
1F
00
1E
1E
00
04
02
1E
1F
1E
02
02
1E
1E
18
08
00
05
1F
18
1A
04
03
1B
1E
03
1F
04
1D
08
1F
03
1B
1D
1B
00
1C
04
1B
00
1E
02
03
1A
1D
07
1C
04
1D
06
04
08
05
01
05
01
1A
02
01
1F
1F
01
03
06
1C
00
1E
1A
03
03
1F
05
01
05
18
01
00
01
1F
02
02
19
1F
18
1D
1D
02
1F
03
1B
03
1C
19
07
1C
1F
02
02
1E
00
1D
02
1E
00
00
02
1C
03
01
07
1D
1E
1A
1C
1F
19
1C
08
00
00
1D
00
19
02
1E
1A
1B
1D
01
00
00
18
08
04
06
1E
00
00
1E
1A
1D
00
00
1E
08
1D
1A
1D
1C
00
01
1C
1D
02
1F
08
01
03
04
00
08
1C
1E
00
1D
1D
1A
07
1F
18
00
02
01
02
00
03
02
00
1F
1D
02
1B
04
01
1E
1C
1E
1D
02
1B
19
1F
03
02
03
18
1D
18
08
18
00
01
00
1C
01
01
1A
1C
08
04
03
1E
1B
1F
02
1D
19
1E
1E
1C
07
02
1B
00
1F
1E
03
1F
00
00
03
03
1E
02
1D
1F
01
05
1A
04
01
06
06
1E
00
1F
1F
00
1C
06
1B
00
19
1E
1D
1E
1C
04
00
1D
02
19
01
1A
00
1C
1D
08
1E
18
18
00
1E
00
07
1F
1D
08
01
1F
00
1E
1E
1D
05
05
1E
1C
02
02
02
00
1F
1F
1F
1C
01
08
1F
00
05
05
1E
05
00
06
02
1F
1F
04
1E
04
02
06
1F
1D
1E
00
1F
1A
02
07
00
05
02
18
06
1D
1F
00
03
01
1C
1A
1B
1B
04
01
1D
07
18
05
01
00
1D
04
1A
04
06
08
01
04
1C
00
1B
00
1E
18
02
03
1F
1E
00
01
02
1C
02
1D
03
03
1F
19
1D
00
1F
1B
01
1E
1D
05
1F
00
01
01
00
05
1C
1D
04
1F
1E
1B
00
03
05
00
1A
04
18
1F
00
1C
1A
18
00
01
1B
02
02
00
01
02
02
1B
01
18
1C
1F
00
00
1F
03
1E
1A
1E
1B
01
04
05
00
05
1D
1F
18
01
1B
00
01
1D
1F
1F
02
00
1B
1D
00
04
1D
01
1D
1B
02
1F
1E
1E
00
00
1E
1F
1B
00
02
03
1F
18
03
03
01
01
02
1F
1F
1D
05
1F
01
02
03
01
1E
1A
1C
1D
00
07
01
05
02
1F
1F
1D
1E
05
03
01
04
1C
1D
04
1F
04
04
03
02
02
1B
07
01
02
00
00
03
1E
19
1F
01
1D
1D
05
02
1F
01
02
1D
1C
1F
1E
01
1E
05
1B
1D
1D
07
03
07
1D
1C
1E
01
01
06
00
1B
06
1C
1B
00
05
19
08
02
1E
1F
05
1E
1C
08
1E
1D
02
1F
1A
18
01
05
1E
06
1A
1C
1A
07
1F
02
03
1F
02
18
02
1F
1D
1F
1D
1C
01
1B
05
1D
1C
1A
1F
1D
08
04
07
18
1A
1D
05
1A
06
1E
19
1B
1D
1A
01
1A
19
04
1E
00
18
1F
1F
1D
1E
1D
04
03
1D
1E
1F
1D
00
04
02
1E
19
1F
05
01
04
02
02
1C
04
02
02
01
05
1F
1E
05
1F
04
1C
07
00
18
1C
1F
01
04
01
1F
1D
1A
1D
08
03
01
1C
1C
01
1C
19
1E
03
1B
01
1B
03
06
02
00
1E
06
04
07
1D
1B
02
02
01
02
06
19
01
1B
00
04
1E
1E
00
1F
1E
01
02
01
1E
00
02
1B
07
1F
00
1E
1C
1C
1D
04
00
1D
07
1E
1E
02
18
18
1A
05
04
01
04
1C
02
1D
1D
00
1E
1A
18
05
02
04
1D
1C
02
01
07
01
00
01
01
04
01
03
1C
08
04
1D
1D
1D
1F
1E
06
03
1D
04
1B
01
1D
1E
1F
02
1F
1F
02
1C
1E
1F
06
1E
02
19
00
1F
06
1F
1F
19
02
01
04
01
1F
1F
1D
02
04
1C
00
06
01
1C
02
1F
01
03
08
1B
02
00
01
1E
1F
01
1F
18
07
02
02
03
00
1B
02
01
1C
07
1E
01
03
01
04
1E
1B
1F
1E
1B
03
02
00
1E
02
00
01
1F
18
02
1F
1F
00
06
1F
18
1E
03
08
1A
1A
04
1F
1D
1E
01
04
02
1C
1C
1A
01
01
01
1E
1F
00
00
18
1E
02
05
1F
1F
02
04
00
00
00
05
01
04
1E
1C
03
04
1F
1D
1D
1B
04
06
1F
1F
06
00
1F
00
1F
00
1C
04
1F
18
00
00
03
01
06
01
03
19
02
00
00
03
03
05
01
1E
02
01
08
1F
1E
07
1F
08
04
1F
03
01
08
03
1B
1D
1B
1A
1F
1E
04
08
18
02
1B
1E
05
02
1E
06
03
07
1A
03
18
01
1C
1C
1E
08
01
01
1D
18
08
1C
04
05
1F
02
1F
1C
1D
01
1F
06
08
1E
1B
1D
08
1A
1E
00
1D
1F
00
00
07
02
00
01
08
19
00
00
01
1B
1E
02
02
02
02
1E
1F
07
1D
00
1E
1C
19
1E
06
1B
1D
02
08
04
05
01
00
1F
01
06
1F
02
00
1B
1C
1A
05
1E
01
08
00
1E
00
1C
07
02
03
1E
1C
03
18
1E
01
18
01
1D
1F
1C
1F
1D
1E
1D
05
1E
1E
00
00
04
1F
07
00
1B
02
01
02
01
04
1F
1E
00
01
06
1F
1F
06
00
01
1F
1E
1D
01
1E
02
03
03
1A
1F
00
1F
03
1B
02
01
01
1F
04
00
1F
05
1C
04
1D
1B
07
06
03
1B
03
02
08
00
1D
05
06
1D
01
08
1A
02
00
02
1C
02
00
1A
04
04
18
04
01
00
05
00
02
1B
08
1F
1E
01
05
01
04
00
04
1F
1B
1E
06
04
04
01
19
07
1E
01
01
00
01
00
05
1E
19
00
1F
07
18
00
06
04
05
1C
1C
00
08
03
00
07
05
02
01
19
08
01
00
08
08
08
02
1C
08
1B
01
01
03
01
08
1E
07
08
01
04
1F
1D
01
00
00
1B
01
04
1E
1A
18
1B
1E
01
1C
03
02
1E
03
00
1C
02
00
07
01
04
04
02
04
1D
00
1B
1D
1A
00
04
1A
1F
03
1B
07
1E
03
05
1D
02
1F
1F
04
1C
02
01
01
1B
01
02
06
02
07
1F
18
1C
01
1D
02
1E
02
1C
1D
02
1F
01
1A
1E
1E
1C
03
1F
18
04
1E
08
1C
00
00
02
1D
05
1D
00
1B
04
1B
01
03
01
04
05
1B
03
1F
1F
06
1F
05
1D
1F
03
1E
01
1F
00
01
19
1D
1C
02
05
00
1B
01
04
00
1E
1C
1F
1E
1A
03
1F
03
04
01
1B
1D
1F
1F
04
1A
02
05
02
1F
02
08
1E
01
1F
1E
1F
1C
1F
1F
00
1C
1D
1F
1F
18
1F
1B
1D
03
1A
1E
1A
05
03
04
1E
03
1B
1F
1D
00
01
1E
1F
1E
01
1D
01
03
07
1F
01
03
02
18
18
1A
1B
05
07
06
03
1E
1C
00
01
1F
00
00
1D
1C
01
1E
18
1F
01
1C
1F
07
1E
1E
01
01
01
04
03
03
01
03
1F
1D
19
07
19
07
08
08
00
1B
1F
1E
08
02
05
00
1C
01
06
08
00
1F
1D
04
1E
02
03
03
00
1D
18
1D
06
01
02
01
1A
18
1F
1C
02
18
1E
00
1C
1E
03
19
01
1D
04
1F
01
1C
04
1C
01
1E
08
00
03
19
1E
1D
01
1E
1A
1B
06
18
03
04
1C
1D
1D
08
1B
1D
1F
00
08
05
01
00
00
02
1F
05
03
06
1F
1E
03
1E
00
1D
01
03
1E
1F
1C
1C
03
07
02
04
1E
02
1E
1E
02
1B
07
00
00
1E
00
02
00
1E
1F
04
00
1E
01
02
04
1D
01
1F
00
1F
01
00
01
00
01
01
00
01
00
00
00
1F
00
01
1F
00
00
00
00
01
00
01
00
00
1F
00
00
00
01
01
00
00
01
01
00
00
1F
00
00
01
00
01
00
1F
1F
1F
00
00
01
00
01
01
00
01
01
00
1F
00
01
1F
1F
03
02
01
02
18
1D
01
00
02
00
1F
1D
06
19
00
00
01
1C
01
01
05
02
1D
1F
1E
01
04
02
1C
1E
1E
01
00
1C
00
04
1F
03
1F
02
1F
1B
1E
01
03
1F
00
1D
1B
02
1C
00
01
01
1F
00
06
03
05
1F
02
1C
1F
01

