02
1F
01
02
1C
1E
1F
01
01
04
00
05
00
00
02
06
06
03
01
00
04
03
05
02
03
1F
00
00
00
00
00
1F
03
1C
03
1E
06
02
06
1F
02
06
05
01
00
00
00
1D
1F
00
1D
00
05
06
1D
01
01
04
00
1E
02
03
1F
04
00
01
1F
02
1E
02
01
19
00
02
00
1D
00
02
1F
05
03
1E
1B
00
1C
1C
01
1F
00
00
1F
02
02
01
01
00
1A
1E
1F
02
03
1B
1E
00
04
02
00
00
00
02
00
00
1F
1D
08
00
01
02
00
00
03
1C
00
1F
1F
1A
1F
1D
1C
01
1F
1E
01
1D
1F
1F
00
1E
00
1D
1F
1F
1E
03
1D
01
18
1D
1E
1F
1E
1E
01
00
00
1B
01
00
01
1B
01
1D
1C
01
1D
1F
1D
00
1F
04
03
1F
1F
1F
00
04
06
02
1C
00
1D
00
1D
01
02
1D
1D
01
01
1D
02
1F
1F
00
1E
00
02
1D
00
1F
1F
02
00
06
1F
1F
1F
01
00
04
1B
1E
00
1F
1E
01
01
00
00
1D
00
00
00
1F
01
01
1F
1E
00
1F
1E
01
02
05
03
00
1F
1F
1F
01
03
01
01
00
1F
01
01
00
1D
00
07
00
1D
1E
03
02
1F
1F
1D
02
03
1F
00
00
00
00
01
1A
00
01
01
1E
00
00
01
1F
1C
00
00
03
02
00
01
1F
1F
00
1F
02
00
05
1D
1C
00
1E
1C
1F
00
08
04
1F
00
00
1F
04
1D
01
07
00
1C
1C
1E
1F
02
1E
07
03
05
1D
02
1D
06
00
03
06
1B
1F
00
02
1F
00
00
03
00
01
1E
1F
04
06
1D
04
01
1C
02
1C
02
1F
00
01
05
00
00
1C
1C
05
08
02
03
1B
03
00
05
00
1C
01
1F
00
00
00
03
1C
01
01
03
1D
1D
01
1C
04
03
1E
00
1F
1C
07
1F
1F
00
01
01
01
01
00
01
00
00
00
00
1F
00
00
00
00
00
00
00
01
00
1F
00
01
01
00
00
00
00
1F
00
1F
1F
00
00
01
00
01
00
00
01
00
01
01
00
00
00
01
01
01
1F
00
01
00
1F
00
1F
00
00
00
00
00
01
1F
1F
00
1E
01
01
01
00
1E
00
02
01
01
01
07
01
00
1E
01
02
00
04
02
1F
00
00
1D
00
00
00
1B
01
00
01
01
07
00
00
00
02
1E
1D
00
1F
1F
1F
1E
02
1F
00
00
08
04
1F
00
02
00
02
1E
19
01
1C
03
1F
01
04
19
1F
1C
01
01
01
1E
00
1C
00
1F
00
1D
08
00
03
01
18
19
08
1D
19
00
01
1E
1D
00
00
1C
19
00
04
04
06
1E
08
00
01
01
08
01
1F
1D
00
18
1B
00
1D
01
08
04
1B
00
1B
05
1C
1C
00
1B
00
03
02
00
1E
1F
1F
01
00
1E
00
1E
01
19
00
1F
00
04
02
01
01
02
1F
02
04
1F
1F
00
00
02
00
01
1F
02
00
1D
02
00
01
1F
00
00
1F
1E
00
00
00
1C
00
1E
1C
1F
04
01
02
1C
1D
00
1F
05
1B
1D
1E
02
01
01
18
1F
02
1F
1E
00
1F
00
1F
00
01
01
1F
00
01
05
1A
1A
01
00
19
1F
1F
03
01
1F
00
1D
1E
1F
00
1A
1C
02
1B
03
02
1E
01
00
01
04
1F
1F
01
04
01
00
1F
01
1C
1F
03
00
01
00
04
1E
04
1D
00
1A
1D
19
1D
01
02
00
04
1E
1F
1C
1F
18
01
1D
01
1F
1F
19
18
01
00
00
00
1E
1B
1F
00
00
00
01
1A
00
00
1F
00
02
1D
1C
1B
01
1D
00
03
07
05
1F
00
1C
00
03
03
02
1A
00
19
1C
1E
00
1B
04
07
07
07
1F
06
01
00
01
04
1F
01
1F
01
01
00
01
00
03
00
00
1F
02
1C
1E
00
1D
01
1F
1E
1E
1C
01
1F
01
1F
1F
01
1F
1E
1E
01
01
00
1F
1E
1F
1F
08
1E
1F
00
03
1F
1E
07
1E
04
00
01
01
1F
00
1F
1F
08
01
04
00
03
02
1E
00
06
1A
18
19
01
1A
00
1C
1F
1D
01
1F
00
08
04
1E
18
03
18
19
02
00
1B
00
1F
1F
00
01
1F
1C
19
18
1E
01
01
1D
07
00
00
02
1C
00
1F
00
1E
19
08
1E
06
00
05
04
18
00
08
1E
1C
18
1E
19
18
1B
00
00
03
1F
1F
00
01
1D
01
1C
00
01
00
1F
1F
03
04
04
1F
01
02
03
04
02
04
00
1F
02
03
1F
00
00
01
1E
05
1F
00
1F
1E
01
02
02
00
1F
00
1E
00
02
1F
1C
04
01
1E
00
1E
00
02
02
00
01
1E
01
00
01
19
00
04
02
19
1E
00
1A
00
00
00
1F
00
1F
1E
1F
04
1D
1D
1D
1C
18
02
19
1C
00
1F
01
02
1F
00
00
19
1D
01
1E
1E
1C
04
00
03
1E
08
01
00
00
00
1F
00
1D
1A
00
01
01
1F
01
01
1B
01
1C
04
18
1A
1D
06
00
1B
1E
1F
1E
1F
1E
00
03
00
00
01
00
03
06
03
00
1D
1D
06
05
02
04
02
00
00
01
02
00
1F
02
04
1E
01
04
02
1C
18
1F
01
00
1C
1F
00
03
00
05
1E
1D
05
00
03
1A
1F
01
00
00
02
00
1D
03
1D
03
00
00
08
1F
00
1F
00
04
00
1F
00
02
00
1F
1E
18
04
1F
18
08
04
00
02
1B
00
00
00
00
03
00
1F
19
04
00
07
1F
1D
1E
02
00
01
1C
18
01
00
00
00
1B
08
1F
08
1F
19
18
1D
1F
19
02
04
06
02
05
03
06
04
00
1E
1F
1E
1F
1F
1D
01
1D
00
00
1F
01
03
08
07
01
03
1E
1E
04
05
05
1E
01
1F
00
03
00
00
02
1F
01
08
1E
08
00
19
01
03
05
01
00
1F
1F
01
07
1F
1C
1A
00
08
03
1F
01
07
1F
04
18
19
02
1B
01
02
00
05
00
1F
1E
01
1D
00
18
1F
02
01
1F
00
1E
1F
00
02
00
1E
1F
1F
07
00
00
1F
00
03
00
1F
1E
1E
02
01
04
1D
00
03
00
01
02
08
00
00
1F
00
03
01
01
1C
00
1B
1B
02
00
02
1D
04
1E
01
1D
1B
00
1E
1F
02
1D
02
1D
00
03
00
1C
00
1E
00
1F
1F
1F
1D
1F
19
1E
1F
01
1D
1D
1D
00
00
1C
02
00
00
1E
00
18
1C
1C
1C
02
04
00
1C
01
1D
1F
00
01
00
1B
07
04
00
00
1C
1B
1B
00
00
01
1D
04
03
05
1F
01
1E
00
00
1D
1F
1F
1F
1F
01
04
1F
08
00
02
01
00
00
1C
1B
1E
00
1E
1D
1B
1C
00
00
01
1F
00
1F
03
1C
1D
1F
1E
1D
00
1E
00
1E
04
1E
1F
00
1F
00
03
05
01
06
1F
1E
1E
01
01
00
1D
08
1E
03
1F
1D
1F
1E
00
05
01
01
02
00
01
1F
01
00
04
00
1F
00
1E
05
01
06
01
1F
1E
02
1F
01
00
00
03
03
00
1F
1F
01
01
04
1B
1E
01
02
01
03
1F
1F
01
00
1E
00
00
18
1E
01
00
01
1F
00
00
01
03
1E
1F
1D
00
1D
02
1C
1F
07
01
00
01
1F
01
00
1E
00
03
1F
00
1E
02
1D
04
1A
06
1E
00
02
00
01
00
01
04
06
1F
00
1A
00
1D
19
04
1E
03
04
01
1F
1C
02
1F
1F
00
00
1A
05
04
08
01
03
01
03
1F
01
03
00
1A
19
00
1F
1D
01
1F
01
1F
01
03
00
1E
01
1D
00
1D
1F
00
1F
01
04
1E
05
02
02
1D
1E
1E
1E
01
00
02
02
1F
01
02
1F
1E
03
1E
1F
1F
1F
00
1F
1E
1B
01
00
1F
00
1E
19
00
00
1F
1F
1C
1D
00
1D
03
1E
1F
1E
00
03
01
1F
00
1F
02
1F
03
1F
1D
00
01
00
18
1F
00
1F
1F
04
01
1B
02
1D
19
03
1B
1C
1F
1F
1F
04
00
01
1E
1C
1B
03
02
02
1D
1F
1F
05
02
19
01
01
1B
00
1F
04
1E
02
00
01
04
1F
1F
01
1F
1C
1E
1F
1A
01
00
1C
1F
01
01
00
1E
00
02
1F
05
00
00
00
00
00
1F
00
02
1D
1F
1F
02
1E
1E
03
00
01
1E
02
00
1F
1F
04
01
1E
1D
1F
00
1C
00
00
1E
04
1F
00
03
01
04
05
00
00
00
1E
03
00
1F
02
1F
01
00
1F
00
02
01
1E
1F
03
00
02
1E
00
19
00
00
00
1E
00
01
01
01
01
1E
1E
1E
1F
01
01
1F
02
00
01
02
03
00
00
01
02
00
1C
06
1F
1F
04
1F
1C
07
1C
00
1F
1B
00
1F
1F
01
1E
00
01
1F
1D
01
03
01
05
1F
02
00
00
1F
02
1F
04
00
1F
00
01
08
1F
1E
1F
00
00
1F
01
00
05
01
02
03
00
02
1E
03
02
1F
00
1C
01
1F
1F
1F
01
01
02
1E
00
02
02
00
02
1C
04
00
00
02
00
01
1E
03
1E
00
1E
1F
04
00
1C
05
02
1D
1A
04
02
1E
06
00
01
1F
01
1F
00
01
00
1F
00
00
00
01
01
04
02
1D
1A
1D
00
03
1E
02
1F
1F
00
00
01
00
1F
05
02
19
02
1D
1A
01
1A
00
1F
02
1D
00
1F
1F
00
05
08
03
02
00
1F
07
01
00
04
1A
05
1F
06
04
1C
02
01
00
00
1E
1E
02
01
01
00
04
00
00
01
00
01
03
01
1C
1E
1D
1D
1D
01
1E
1C
1F
1F
1E
04
00
00
02
1C
1E
1D
1A
03
1E
1E
00
1E
03
1A
00
00
00
1E
01
1D
01
03
01
05
1C
1E
01
03
1F
1D
1A
18
1E
01
1B
1F
1F
00
00
04
06
00
01
1F
02
00
1B
00
1E
00
00
01
00
1E
01
02
00
1E
1F
1F
1F
01
1F
03
1F
01
1F
01
01
02
1E
1E
1F
1D
00
01
04
1D
00
1F
01
1F
00
03
1E
1D
1F
1F
00
05
00
06
02
04
00
1D
01
01
02
00
01
07
1E
04
1E
1F
02
01
1F
00
1D
00
01
00
05
04
1C
1E
1D
1F
1A
1F
1D
1C
00
01
00
01
00
01
03
1F
1A
1B
03
02
00
02
00
1E
08
03
00
01
1E
00
18
1C
03
08
00
08
00
02
00
1F
1E
00
1B
1A
1E
03
1F
01
1F
03
19
1E
1B
00
03
01
1C
00
1C
00
01
00
1A
01
1D
19
00
1C
1A
00
1C
1A
01
00
1C
1F
00
1F
1E
1A
18
1B
1A
18
03
08
01
1B
08
08
00
01
1E
01
19
07
06
18
1F
18
00
18
00
1A
00
05
03
05
03
06
01
05
00
04
07
06
1E
1F
06
00
1B
01
08
00
00
00
05
04
04
1B
1C
02
01
1B
1C
05
01
00
05
1D
00
00
04
07
1A
05
03
19
05
06
00
08
00
04
00
00
1A
1F
1D
08
03
08
01
07
05
07
00
07
1C
1F
1B
08
1C
08
07
1E
00
03
01
1A
02
00
1C
01
02
01
04
00
00
00
1F
02
1F
05
02
1E
01
04
1F
01
1F
01
00
1C
1F
00
1D
1F
1D
00
18
04
00
07
01
02
03
00
01
00
1F
00
1D
19
1E
03
00
04
1F
01
01
1D
01
04
1C
1F
1D
1E
1E
06
01
04
1E
00
01
01
00
01
01
1F
1D
1F
1F
02
1E
01
01
1C
03
04
06
00
1F
04
00
01
05
03
00
00
03
05
01
04
00
1F
03
04
00
1A
1F
05
00
00
1F
01
01
08
01
06
1F
1D
1E
1F
00
19
04
02
05
04
05
04
05
04
01
1F
1D
03
1F
00
03
00
02
00
08
1F
01
00
00
00
1F
1C
1D
1F
02
1A
1E
01
1F
01
04
1B
00
00
04
1F
1F
1E
02
1A
04
00
00
1D
01
05
00
01
1C
00
1F
05
04
03
00
1F
00
07
00
03
1C
05
1E
04
00
03
1C
19
1F
08
18
02
1C
01
1D
00
1D
1F
1E
1F
1F
00
05
02
18
1A
1D
1A
00
19
02
1C
1F
00
1A
00
01
00
1E
00
1B
19
1D
1F
1B
08
01
19
00
1F
01
00
01
00
19
07
1E
03
00
07
04
00
00
08
1A
1C
1D
1C
1E
1B
18
02
01
1C
01
18
1C
00
18
00
19
01
1C
1F
00
00
06
02
1D
00
19
19
1B
00
03
1A
00
00
1C
04
00
01
00
18
1F
01
01
03
18
19
01
02
1E
18
00
01
1D
1F
03
00
18
07
00
06
1B
19
00
08
18
1D
18
1E
18
18
1C
03
01
03
04
01
1E
00
01
1F
02
00
01
00
02
1F
04
04
02
1B
01
03
1F
02
1D
1E
00
1F
00
02
1F
00
02
1E
1F
03
1C
02
00
03
01
06
02
19
00
01
1D
1F
1E
04
02
00
00
06
06
03
1F
01
00
00
1E
02
02
02
04
01
1F
1F
01
1B
02
00
1D
01
00
00
18
00
02
1F
08
05
01
1E
01
1E
1D
03
00
1B
1F
00
19
00
00
00
18
1D
1D
04
1A
08
1B
01
1F
05
1B
18
1F
1F
1B
00
1D
00
1A
02
00
08
04
1F
00
1E
1C
1B
1A
18
1C
18
05
07
01
1F
08
1D
08
1F
1D
00
03
00
00
00
00
1E
06
07
08
1B
07
08
18
08
1D
1B
00
00
1C
07
00
00
19
1A
1D
08
19
08
1C
18
1F
08
1D
02
00
1F
01
00
05
04
1B
1E
01
03
06
05
00
18
02
00
1D
1E
1B
1C
08
18
1F
1F
08
1F
03
01
1F
00
04
00
02
1F
00
1F
01
1C
07
02
02
08
08
02
00
08
01
01
05
02
00
00
1F
08
06
00
03
03
07
1D
00
08
1B
1E
01
00
02
01
01
1D
18
1F
00
00
00
07
00
1E
00
1D
01
1B
19
1F
07
1B
1F
1F
02
1F
04
00
18
1F
19
01
19
01
1F
1D
1E
1E
1A
01
1C
1D
19
1F
1C
1D
1F
01
1F
03
00
00
02
1A
03
1E
1D
1F
18
1E
01
02
1F
18
00
00
18
01
01
1F
19
1D
01
1F
02
00
1F
03
19
03
00
01
18
1D
1C
01
01
1A
05
01
01
1F
01
01
03
01
19
00
01
01
02
19
04
08
1A
01
1E
1E
01
03
00
01
1F
02
00
1F
05
02
03
07
1C
00
00
18
00
03
08
1D
00
01
01
01
06
19
19
19
1F
1C
03
01
01
1D
01
04
03
00
01
01
05
05
00
1C
1E
02
00
00
05
00
02
00
1B
00
00
01
07
00
1C
02
1E
02
05
1C
06
02
00
00
19
1B
00
00
03
04
04
07
1F
1F
03
19
00
1F
07
1F
01
00
01
00
03
1D
1F
1D
00
03
08
1D
00
1C
01
04
03
1C
05
1F
04
1D
00
03
00
1F
00
00
00
01
00
1F
08
1F
00
1F
18
1B
00
1A
02
04
1E
1F
00
00
00
00
1D
02
00
1F
1C
00
01
1E
18
00
00
18
1F
1F
07
1D
00
00
02
1F
08
01
1F
18
00
18
18
02
00
1B
01
08
06
1D
1E
1E
00
1E
00
04
03
1F
05
00
1D
00
00
1F
1C
00
00
1E
04
05
00
1C
03
1D
1A
01
1C
1E
01
1F
1E
06
00
01
19
1C
1B
05
1F
02
1E
05
00
08
1C
01
01
01
1D
1F
1D
1F
1D
04
01
05
00
1F
01
04
02
1C
1D
19
1A
1D
02
05
01
04
01
06
1E
00
05
00
1B
00
08
1F
01
01
06
02
00
1F
1A
1E
1F
1B
1C
01
1F
00
06
1D
1F
00
07
00
19
03
05
18
04
08
1F
02
02
07
01
00
1C
1F
1B
08
02
08
1F
07
08
06
00
08
19
00
1A
08
1D
07
04
05
00
02
1E
1F
1E
00
01
00
00
1F
1C
00
01
00
1F
00
01
1C
03
02
04
1E
05
01
00
00
1D
1F
00
1F
1E
01
03
03
1E
1D
03
03
01
00
01
03
01
1F
1E
01
00
07
01
1F
1F
1B
19
1F
01
1F
01
1E
02
02
02
01
02
08
1F
03
08
1D
04
1F
1C
00
1F
00
03
01
00
1F
03
07
08
1D
07
06
1A
08
1C
1C
00
1F
00
05
00
00
1F
1B
1E
08
1D
07
1E
1E
1F
08
1F
04
1F
00
1E
1F
1F
02
1C
18
01
03
07
06
00
19
02
1F
1A
1D
1E
1D
08
1F
1F
01
1D
00
1C
01
1C
00
1F
00
1C
00
00
00
02
1E
1A
05
1E
01
1D
1C
01
1B
00
1F
1E
1F
01
01
04
1D
1A
1E
1F
1E
1E
03
1F
1E
03
06
00
1F
06
1E
1C
18
01
00
01
01
00
00
01
00
1D
07
1E
1F
1F
1F
1D
03
01
01
1D
00
1F
00
03
00
08
1F
1B
01
1F
01
1E
00
1E
00
1C
1C
1E
1C
1D
1F
00
01
03
00
01
1F
05
1C
1A
1E
1A
1B
00
05
00
1D
08
08
01
00
05
00
18
1D
01
18
01
1D
08
1F
00
1E
1D
08
00
1F
1F
02
1E
04
00
04
00
05
1F
00
04
1F
00
01
08
00
00
00
06
01
1E
01
1B
1E
1E
1B
1C
1F
00
00
06
1D
00
00
06
1E
19
02
02
1A
00
08
00
01
07
08
01
00
00
1F
19
08
02
08
01
05
08
07
00
08
18
04
1A
08
1D
07
00
00
00
04
1F
1C
00
00
01
00
18
01
18
00
01
1F
00
05
1E
02
02
1C
18
04
1D
1B
00
00
1B
00
00
00
1A
1A
01
00
00
05
1F
08
00
01
18
1D
01
00
1C
00
19
1A
01
07
00
07
19
1A
00
1D
1F
19
1B
1C
1F
1E
00
1C
00
00
01
03
1F
01
1F
1F
01
00
00
00
01
01
01
18
1B
02
1B
1C
19
1C
01
1A
1F
1F
01
1A
1F
00
06
1A
1F
18
05
1B
1F
1D
00
1E
04
1E
00
00
1F
1F
00
1F
1F
1F
00
1E
1E
01
00
02
00
03
01
03
19
1F
1B
1F
00
01
1E
1D
00
01
1E
00
1C
00
19
1F
00
1F
02
04
1C
1D
00
1D
1C
03
1D
1C
01
1F
02
01
1F
00
1E
1D
03
1F
18
02
1D
05
1F
00
04
03
00
00
03
00
1D
1E
1F
1B
00
02
00
01
01
02
1D
02
1D
02
1D
18
1D
02
01
01
1F
00
1D
1F
04
1F
1E
01
05
1F
00
00
1E
03
00
01
02
00
1E
02
1F
1E
00
00
01
02
1F
1F
02
1C
1F
1F
1E
1F
1E
1A
00
00
01
02
01
01
1B
00
05
04
01
1D
00
1D
00
01
00
00
01
03
02
1F
01
02
00
08
00
1A
01
00
03
1F
01
00
05
1F
1C
00
00
00
19
18
03
1E
05
05
1F
18
02
1F
00
00
03
1B
1F
1F
03
1E
04
1C
01
1E
1F
18
00
1C
06
1C
00
00
02
1F
08
03
00
1F
1F
18
18
05
00
18
08
08
07
05
03
01
1E
1F
01
03
01
00
02
00
1D
00
01
00
1E
01
1F
1F
00
1F
1F
19
02
04
1F
1F
1B
00
00
00
1F
02
00
00
1B
02
02
1F
1B
1F
1F
00
00
01
1C
1C
00
1F
1B
00
1F
07
1F
1D
01
01
1E
00
1F
03
1F
1A
1C
00
1E
1F
1F
1E
1F
03
1F
03
1E
00
1C
00
1F
00
1D
00
00
01
00
04
1D
1E
00
00
1D
00
1F
1F
00
01
1C
05
00
00
1E
00
01
00
1F
02
1F
1D
00
1F
05
1D
1F
00
1E
1F
1F
03
00
1C
00
02
00
1F
00
01
01
04
1F
1C
1F
00
1F
1F
00
07
1D
19
1B
01
1D
00
1E
01
01
1F
02
1F
05
08
00
01
01
1F
1F
06
1E
1F
1F
00
1C
02
00
1F
1E
1D
1C
01
01
04
1E
08
00
1D
1A
1C
01
00
1D
00
1C
00
1D
07
1F
07
06
1C
00
06
01
1E
18
19
00
19
00
02
00
02
00
02
1F
00
04
00
1F
01
08
00
01
00
01
00
00
1A
00
03
1D
1E
1E
1F
00
01
02
1F
1F
01
00
01
1F
02
1D
1E
03
01
00
1F
03
02
00
01
02
1F
05
04
01
01
00
01
01
04
00
02
1F
07
00
04
03
01
02

